~o
<STREAMINFO> 3 12 12 2
<VECSIZE> 26<NULLD><MFCC_E_D><DIAGC>
~h "V"
<BEGINHMM>
<NUMSTATES> 5
<STATE> 2
<SWEIGHTS> 3
 1.000000e+00 1.000000e+00 1.000000e+00
<STREAM> 1
<MEAN> 12
 -1.413164e+00 -8.906079e+00 1.153784e+00 -1.061534e+01 -1.619441e+01 -2.254784e+00 -1.065280e+01 9.840329e-01 -4.624378e+00 -2.768738e-01 -1.788933e+00 -1.958751e+00
<VARIANCE> 12
 2.165017e+01 4.476514e+01 1.227020e+02 3.702430e+01 5.924604e+01 7.669113e+01 4.722796e+01 3.709578e+01 6.209264e+01 2.505368e+01 2.662851e+01 1.669312e+01
<GCONST> 6.668890e+01
<STREAM> 2
<MEAN> 12
 8.504607e-01 -1.051371e+00 -4.295617e-02 -3.616236e-01 -9.131162e-01 5.208127e-01 -8.749883e-01 4.732836e-01 5.072118e-01 2.913607e-01 -5.049799e-02 -5.595560e-01
<VARIANCE> 12
 2.005076e+00 2.002484e+00 3.162329e+00 1.935061e+00 3.672390e+00 3.252237e+00 2.932497e+00 2.344691e+00 3.754428e+00 1.692249e+00 1.871904e+00 1.920020e+00
<GCONST> 3.279252e+01
<STREAM> 3
<MEAN> 2
 1.729080e+01 3.321337e-01
<VARIANCE> 2
 1.919985e+00 1.239713e-01
<GCONST> 2.240366e+00
<STATE> 3
<SWEIGHTS> 3
 1.000000e+00 1.000000e+00 1.000000e+00
<STREAM> 1
<MEAN> 12
 1.861544e+00 -1.216146e+01 -7.865649e+00 -1.114971e+01 -1.280111e+01 3.705618e+00 -9.823252e+00 1.955404e+00 -3.585740e-01 2.277287e-01 -4.619544e+00 -6.147205e+00
<VARIANCE> 12
 9.677446e+00 4.317153e+01 7.031024e+01 3.593367e+01 4.023761e+01 7.634340e+01 4.592086e+01 4.345277e+01 3.393868e+01 3.003067e+01 3.129403e+01 2.605686e+01
<GCONST> 6.518322e+01
<STREAM> 2
<MEAN> 12
 -2.264045e-01 2.769333e-01 5.679583e-01 2.076634e-01 -4.772322e-02 -5.485643e-01 2.342167e-01 1.222529e-01 -7.458244e-02 4.752295e-02 -2.506077e-01 3.348518e-01
<VARIANCE> 12
 5.455225e-01 1.477556e+00 2.527766e+00 1.634703e+00 1.919716e+00 2.345375e+00 1.842397e+00 2.386981e+00 1.597572e+00 1.747005e+00 1.716293e+00 1.629449e+00
<GCONST> 2.829822e+01
<STREAM> 3
<MEAN> 2
 1.792161e+01 -1.186287e-01
<VARIANCE> 2
 1.500678e+00 5.184606e-02
<GCONST> 1.122195e+00
<STATE> 4
<SWEIGHTS> 3
 1.000000e+00 1.000000e+00 1.000000e+00
<STREAM> 1
<MEAN> 12
 -5.231246e+00 -5.614097e+00 1.675117e+00 -7.726379e+00 -1.217872e+01 -4.062745e+00 -5.605589e+00 9.555551e-01 -2.624205e+00 -2.147821e-01 -4.317511e+00 -1.244777e+00
<VARIANCE> 12
 3.894120e+01 4.321568e+01 6.121738e+01 3.642866e+01 6.669091e+01 5.339436e+01 4.622070e+01 4.008686e+01 4.651640e+01 3.555678e+01 2.954465e+01 1.883060e+01
<GCONST> 6.662714e+01
<STREAM> 2
<MEAN> 12
 -2.368859e+00 1.920914e+00 -8.931354e-01 1.155867e+00 2.475634e+00 -8.718822e-03 1.519284e+00 -1.144711e+00 2.305343e-01 -5.458654e-02 2.655333e-01 3.008797e-01
<VARIANCE> 12
 4.720544e+00 3.171431e+00 5.493658e+00 3.607673e+00 5.608868e+00 4.737712e+00 4.907235e+00 4.100148e+00 6.359846e+00 3.172446e+00 2.576428e+00 1.821784e+00
<GCONST> 3.857965e+01
<STREAM> 3
<MEAN> 2
 1.577625e+01 -7.939682e-01
<VARIANCE> 2
 3.787326e+00 3.406802e-01
<GCONST> 3.930603e+00
<TRANSP> 5
 0.000000e+00 1.000000e+00 0.000000e+00 0.000000e+00 0.000000e+00
 0.000000e+00 5.466667e-01 4.533333e-01 0.000000e+00 0.000000e+00
 0.000000e+00 0.000000e+00 8.062678e-01 1.937322e-01 0.000000e+00
 0.000000e+00 0.000000e+00 0.000000e+00 6.069364e-01 3.930636e-01
 0.000000e+00 0.000000e+00 0.000000e+00 0.000000e+00 0.000000e+00
<ENDHMM>
