~o
<STREAMINFO> 3 12 12 2
<VECSIZE> 26<NULLD><MFCC_E_D><DIAGC>
~h "C"
<BEGINHMM>
<NUMSTATES> 5
<STATE> 2
<SWEIGHTS> 3
 1.000000e+00 1.000000e+00 1.000000e+00
<STREAM> 1
<MEAN> 12
 -1.339908e+01 -3.645408e+00 -2.300236e+00 -4.724142e+00 -4.963098e+00 -4.124617e+00 -3.122512e+00 -1.275681e+00 -1.360379e+00 -1.199948e+00 -3.159472e+00 -5.346428e-01
<VARIANCE> 12
 3.960839e+01 5.224875e+01 3.724345e+01 4.678616e+01 4.045776e+01 3.682016e+01 3.161358e+01 3.462424e+01 2.373785e+01 1.991866e+01 2.328404e+01 1.474281e+01
<GCONST> 6.345435e+01
<STREAM> 2
<MEAN> 12
 -2.241506e+00 1.829185e-01 -1.124546e+00 -2.272422e-01 1.574593e+00 5.758216e-01 6.582476e-01 -2.719987e-01 3.732364e-01 -5.570794e-02 1.585347e-01 7.677491e-02
<VARIANCE> 12
 5.736078e+00 5.691623e+00 4.439059e+00 6.488383e+00 6.572949e+00 3.832317e+00 4.777623e+00 3.923245e+00 3.495365e+00 2.334737e+00 2.542576e+00 1.761333e+00
<GCONST> 3.865663e+01
<STREAM> 3
<MEAN> 2
 1.268387e+01 -4.312111e-01
<VARIANCE> 2
 6.014887e+00 1.105244e+00
<GCONST> 5.570057e+00
<STATE> 3
<SWEIGHTS> 3
 1.000000e+00 1.000000e+00 1.000000e+00
<STREAM> 1
<MEAN> 12
 -2.186352e+01 -4.426845e+00 -6.187255e+00 -8.810660e+00 -2.570033e+00 -5.171503e+00 -4.870277e-01 -1.601392e+00 -2.077152e-01 -1.566128e+00 -2.136569e+00 -3.495724e-02
<VARIANCE> 12
 3.543518e+01 2.398479e+01 3.205378e+01 3.111458e+01 2.892469e+01 3.455917e+01 2.176829e+01 1.616382e+01 1.709851e+01 1.532127e+01 1.201164e+01 1.174265e+01
<GCONST> 5.899268e+01
<STREAM> 2
<MEAN> 12
 1.147217e-01 -3.650536e-01 -1.801622e-01 -2.645109e-01 -1.579586e-01 -2.711660e-02 -7.551393e-04 5.649328e-02 6.002481e-02 -5.423315e-02 -7.361545e-02 -3.362020e-02
<VARIANCE> 12
 3.493392e+00 1.603924e+00 2.173588e+00 2.373742e+00 1.695207e+00 1.974821e+00 1.916612e+00 1.682929e+00 1.767861e+00 1.854143e+00 1.571370e+00 1.235278e+00
<GCONST> 2.964851e+01
<STREAM> 3
<MEAN> 2
 1.412564e+01 7.737922e-02
<VARIANCE> 2
 6.969769e+00 3.516510e-01
<GCONST> 4.572220e+00
<STATE> 4
<SWEIGHTS> 3
 1.000000e+00 1.000000e+00 1.000000e+00
<STREAM> 1
<MEAN> 12
 -9.193385e+00 -8.265957e+00 -3.493844e+00 -6.929820e+00 -8.295878e+00 -3.871203e+00 -4.369586e+00 8.442470e-01 -1.433514e+00 -1.400487e+00 -3.382738e+00 -8.229995e-01
<VARIANCE> 12
 7.086018e+01 4.245872e+01 6.743958e+01 3.643150e+01 5.865091e+01 5.142644e+01 5.251407e+01 3.582238e+01 3.400628e+01 2.551784e+01 2.338029e+01 1.624227e+01
<GCONST> 6.612728e+01
<STREAM> 2
<MEAN> 12
 2.755521e+00 -8.496650e-01 5.356797e-01 -4.763816e-01 -1.717933e+00 1.447258e-01 -1.634844e+00 4.491893e-01 -4.465421e-01 1.446972e-01 4.385109e-02 -4.279440e-01
<VARIANCE> 12
 5.001639e+00 4.158172e+00 4.841475e+00 4.677319e+00 4.687658e+00 5.432356e+00 5.068477e+00 3.291172e+00 3.168854e+00 2.430709e+00 2.420398e+00 2.074245e+00
<GCONST> 3.791599e+01
<STREAM> 3
<MEAN> 2
 1.486194e+01 6.255984e-01
<VARIANCE> 2
 5.111889e+00 6.776247e-01
<GCONST> 4.918161e+00
<TRANSP> 5
 0.000000e+00 1.000000e+00 0.000000e+00 0.000000e+00 0.000000e+00
 0.000000e+00 4.988868e-01 5.011132e-01 0.000000e+00 0.000000e+00
 0.000000e+00 0.000000e+00 7.438720e-01 2.561280e-01 0.000000e+00
 0.000000e+00 0.000000e+00 0.000000e+00 6.538650e-01 3.461350e-01
 0.000000e+00 0.000000e+00 0.000000e+00 0.000000e+00 0.000000e+00
<ENDHMM>
