~o
<STREAMINFO> 3 12 12 2
<VECSIZE> 26<NULLD><MFCC_E_D><DIAGC>
~h "V"
<BEGINHMM>
<NUMSTATES> 5
<STATE> 2
<SWEIGHTS> 3
 1.000000e+00 1.000000e+00 1.000000e+00
<STREAM> 1
<MEAN> 12
 -1.614358e+00 -8.892078e+00 1.706811e+00 -1.021351e+01 -1.661926e+01 -2.879942e+00 -1.044451e+01 1.024648e+00 -4.773929e+00 -2.520885e-01 -1.668036e+00 -1.856578e+00
<VARIANCE> 12
 2.271815e+01 4.702364e+01 1.191218e+02 3.436500e+01 5.647335e+01 7.102810e+01 4.753006e+01 3.791041e+01 6.427975e+01 2.490018e+01 2.595457e+01 1.683997e+01
<GCONST> 6.659718e+01
<STREAM> 2
<MEAN> 12
 8.960190e-01 -1.031595e+00 -4.373886e-02 -3.553471e-01 -9.392143e-01 4.745628e-01 -8.766475e-01 4.542823e-01 4.569253e-01 3.128131e-01 1.103174e-02 -5.424999e-01
<VARIANCE> 12
 2.086613e+00 2.055426e+00 3.399765e+00 1.987268e+00 3.811044e+00 3.335481e+00 3.167179e+00 2.435723e+00 4.045511e+00 1.752089e+00 1.919606e+00 1.931899e+00
<GCONST> 3.327566e+01
<STREAM> 3
<MEAN> 2
 1.722136e+01 3.335013e-01
<VARIANCE> 2
 1.978892e+00 1.272729e-01
<GCONST> 2.296869e+00
<STATE> 3
<SWEIGHTS> 3
 1.000000e+00 1.000000e+00 1.000000e+00
<STREAM> 1
<MEAN> 12
 1.962402e+00 -1.210752e+01 -8.250116e+00 -1.135590e+01 -1.248987e+01 4.188816e+00 -1.005887e+01 1.836775e+00 -2.373463e-01 1.278313e-01 -4.613809e+00 -6.260897e+00
<VARIANCE> 12
 9.137141e+00 4.354883e+01 6.716437e+01 3.757978e+01 3.960660e+01 7.372546e+01 4.546482e+01 4.338351e+01 3.266520e+01 3.026483e+01 3.170846e+01 2.553674e+01
<GCONST> 6.503372e+01
<STREAM> 2
<MEAN> 12
 -1.990603e-01 1.888645e-01 5.187472e-01 2.105592e-01 -8.137183e-02 -4.935023e-01 2.185295e-01 1.911074e-01 -3.202783e-02 2.622739e-02 -2.957065e-01 2.858881e-01
<VARIANCE> 12
 5.414914e-01 1.482301e+00 2.423836e+00 1.582394e+00 1.901429e+00 2.461286e+00 1.732526e+00 2.291546e+00 1.624137e+00 1.655908e+00 1.686273e+00 1.615882e+00
<GCONST> 2.809281e+01
<STREAM> 3
<MEAN> 2
 1.795088e+01 -1.016211e-01
<VARIANCE> 2
 1.492183e+00 5.607454e-02
<GCONST> 1.194921e+00
<STATE> 4
<SWEIGHTS> 3
 1.000000e+00 1.000000e+00 1.000000e+00
<STREAM> 1
<MEAN> 12
 -4.968256e+00 -5.991209e+00 1.801341e+00 -7.840611e+00 -1.264791e+01 -4.284465e+00 -5.635714e+00 1.164975e+00 -2.801106e+00 -4.180245e-02 -4.300807e+00 -1.220985e+00
<VARIANCE> 12
 3.770135e+01 4.331981e+01 6.058741e+01 3.487051e+01 6.759698e+01 5.206184e+01 4.615146e+01 3.989167e+01 4.652673e+01 3.475239e+01 2.900764e+01 1.809045e+01
<GCONST> 6.644387e+01
<STREAM> 2
<MEAN> 12
 -2.262883e+00 1.899423e+00 -7.351203e-01 1.056044e+00 2.352366e+00 -5.954319e-02 1.412028e+00 -1.160224e+00 1.975769e-01 -1.223451e-02 2.798531e-01 3.382104e-01
<VARIANCE> 12
 4.590793e+00 3.044576e+00 5.658159e+00 3.695241e+00 5.577435e+00 4.503076e+00 5.003965e+00 3.960245e+00 5.953882e+00 3.202920e+00 2.492597e+00 1.898969e+00
<GCONST> 3.844485e+01
<STREAM> 3
<MEAN> 2
 1.588234e+01 -7.609711e-01
<VARIANCE> 2
 3.723202e+00 3.373682e-01
<GCONST> 3.903757e+00
<TRANSP> 5
 0.000000e+00 1.000000e+00 0.000000e+00 0.000000e+00 0.000000e+00
 0.000000e+00 5.173818e-01 4.826181e-01 0.000000e+00 0.000000e+00
 0.000000e+00 0.000000e+00 8.046474e-01 1.953526e-01 0.000000e+00
 0.000000e+00 0.000000e+00 0.000000e+00 6.324637e-01 3.675363e-01
 0.000000e+00 0.000000e+00 0.000000e+00 0.000000e+00 0.000000e+00
<ENDHMM>
